0a13
0d04
18cc
22d8
3df8
3dee
44de
dc0d
5df5
e42d
1fff
e146
2312
e524
c21b
f4f3
0ff0
ffda
d707
22f2
965a
32e0
fd2a
b128
e5f0
2cc3
061a
e348
1fc8
cc1b
c91c
e30c
e5f9
ff1c
40a9
51ac
f515
29b7
efd1
0dd4
2ddd
cd1a
e4d0
c616
08ef
df23
dd2d
38c3
f4fe
2309
f105
13cc
f54a
08ec
cb1e
ca29
c057
10db
0afc
b83c
349a
08f7
fbf7
ff3a
2fce
e21c
3b8d
57b8
fc01
23c9
e301
09e6
43b8
b80f
0421
cf2f
31df
30ce
da43
fbfb
e2d8
1202
023b
29ed
cc4b
3ce3
d1eb
e421
b510
3cd9
16fb
ea38
649b
d404
e659
f33d
0fe9
dc11
58d2
429d
2fb8
40ba
11f2
f623
68b7
e214
07f7
e136
34bf
1d0f
ba23
360e
2208
10d7
1825
031f
af51
06fc
f726
c00a
c53a
1bc5
081d
da38
72c4
9a77
c044
d806
fc04
c827
6fc8
4c83
28ad
ff0a
014b
09ff
35d0
a947
031a
eb2c
01fb
ea11
bd4e
25bd
d30a
0e00
fe1e
0cdb
bf63
e7f0
b050
b334
f845
42ad
ee05
a261
368f
f426
863b
dd49
db00
ec4c
54aa
4adb
30c8
4baa
ca08
47c3
5394
b83d
f7cf
d430
3be1
38be
b80b
51c8
e42f
e50b
c40a
16fa
d053
e8fe
cf3f
fc37
e420
29c2
f11d
a028
61e1
b14c
a26b
a016
26fe
e14b
649d
e8df
4507
599c
d604
24b9
4cdc
ea32
12d9
af09
4ada
eb06
dd39
4ce6
0be5
de0b
d0fc
2cbe
fd29
fffb
fdfa
b92c
cd31
5ed5
10e7
d84a
0ec4
ef2a
b216
ef11
ed00
b923
2ea5
13ee
25d3
34ab
032b
4da4
3db5
c72d
1bd7
f11c
26be
f8f3
da2e
2cfa
1019
b230
0237
2bff
f108
a550
e540
fef7
e52f
3dab
eaf8
b03e
11e9
d548
e244
c64a
0ed5
d52d
56d8
f614
45c9
1ddc
f50f
45b4
0cd7
b336
32e5
da43
32d2
ce40
06f5
44b8
22ea
c867
dadd
e5d9
ed2f
b96b
fd33
04d5
eb37
54cb
15f1
b735
2eff
df0c
c03f
e914
